E0B
012
041
1A6
0DC
F9C
E78
F3E
177
110
F26
ECD
0E2
010
FE0
046
018
FB6
FC0
F99
060
213
F08
EEA
114
005
F76
FF3
FC8
035
100
F0D
F16
EF1
F6A
FF1
0A5
F1B
01E
E8C
FB6
144
FB0
FE8
F9C
F52
010
0CE
075
168
F30
F3D
22F
0BA
EE7
0BD
0EA
DFC
FEB
F5C
FDD
FF0
FD2
F96
046
F35
01D
0DD
F61
FC4
FD1
EB2
152
FB8
FA1
1F5
F7C
FF3
EBB
181
152
055
EDB
F0C
F0D
06E
04D
FF3
13A
0A1
197
FCD
08C
F8A
E24
10B
F92
E94
FD2
113
083
F3A
049
DB4
ED1
FE7
ED7
F10
EFB
079
0DB
EEA
0FC
18D
FDA
FB1
0C7
FFD
F37
08B
164
0C0
FD4
FFA
153
135
0BE
F67
165
F59
047
01A
04F
02C
094
E81
E3B
01C
EEF
F1F
0A0
ED9
03B
EA5
09C
13B
EC6
F7D
0DB
068
EB4
030
161
F0B
007
09A
0C5
FF1
FC6
01E
165
EE4
0B1
03E
034
0D1
FAB
F06
EC8
F60
E27
FC8
06B
F51
090
EB0
151
0B3
E90
F53
12D
0A8
F43
04F
17A
FB4
05C
07C
0C2
0BA
F9D
03E
0CF
F8B
21D
000
08A
0A5
011
FAF
F06
EB0
E7B
06E
184
F7D
22D
08F
026
FA8
067
FB4
055
ED6
EE4
0AC
007
F73
0C4
089
033
E2A
006
F5D
07B
FC4
160
F74
0C0
F86
FCD
EFB
EBA
E71
DF4
EC2
074
E97
23C
FFD
0B5
FD2
0B4
076
F37
D12
EE5
0E4
023
F59
12A
090
15B
E0E
006
085
025
05C
FC8
009
FC4
F33
010
F43
070
F14
E33
DA8
F64
0D3
233
038
0F3
087
02F
035
F25
BF6
018
15E
02A
12E
083
0CC
125
04B
048
F19
0E3
1D0
FFD
0D5
F00
EEA
E24
0E9
07C
CB8
EDB
02D
E57
166
272
0A6
0F3
0AF
D00
F71
FA3
101
111
11D
EF3
2AB
F88
2EB
F30
F66
F13
F0C
E67
0A4
065
0C8
FFF
F88
F07
0C2
04B
173
FEF
F15
17F
FDD
06A
F9D
0A2
F78
126
F5C
18D
214
EC5
F61
0A7
F8D
F4F
052
FA4
124
13B
00A
FF2
1B9
062
128
E6E
103
E2C
169
159
EDF
F42
085
0F1
ECC
F6D
0B7
127
F9D
FBF
E37
FC3
238
008
02C
FCB
054
033
024
FBB
FAA
EBC
FFD
FB3
06A
19A
070
0A5
03C
034
FB8
FFA
F44
FB0
F4A
0DE
FD3
F1D
FCA
105
02D
EF6
EE1
0FD
0E1
FD0
038
F60
02F
10B
FC4
FCF
FBF
FB3
EED
061
00E
0E7
170
F96
F9B
00F
01F
003
FE1
EE0
F7D
FE1
F30
F16
F78
151
0B4
F76
F7B
073
034
F32
FBC
01F
FB8
052
F89
054
016
F90
F08
0C7
F73
016
0EA
023
FA6
FA4
FFE
04B
084
FC5
F14
FD1
FB7
F86
F63
076
082
00D
FCE
FA8
06D
01D
065
072
0F5
118
01C
F91
FCD
FF9
FCB
0B8
028
FE9
079
007
FCB
04A
03B
FF2
0BD
037
FD3
07D
FDD
00E
FD1
048
00B
FC2
052
FDA
FE7
025
08D
FDC
0C0
0C6
06A
FAF
FD4
010
00F
FA0
084
F83
075
F53
FD4
06C
FE6
FFF
01A
F8A
F36
07A
FA8
090
007
FCB
03D
025
FA6
052
F5D
FEF
0E4
0B2
FDC
063
0A0
FD7
015
FA6
FE1
0AB
05F
00E
FE0
FF2
06C
0D2
FD0
FE1
FD5
FF5
EB5
FC6
FE6
0D4
FAB
FA4
07E
043
F21
006
F08
FC5
08A
FED
012
041
0D7
084
FB9
F7E
F26
F2F
0DD
002
FDE
FE0
FB8
072
F73
07B
F4F
FAF
F58
F90
F84
108
189
FC5
013
05A
F6A
07A
F30
006
FEC
008
00F
F6F
04F
06D
EEF
05E
00D
F1B
15F
EFD
076
0A8
DEE
FE7
00B
089
EC1
EDD
F73
F34
27D
F96
225
087
113
EEF
F73
263
F37
117
F25
04F
039
EC2
00E
F4C
E8A
0CD
F3A
F88
067
186
012
051
012
F40
002
0EA
F42
0F0
04E
0CB
F90
13D
F9C
18F
04F
FF7
F6B
2E7
02E
043
FAF
EE1
FF2
D8B
019
08B
093
FA3
12F
F3B
0DD
091
077
056
078
FE4
FE2
032
FBA
FC9
00B
142
F29
059
08E
167
06F
028
F17
F82
0C1
02E
FBD
03B
F72
F69
046
F8E
FE1
FE8
FBF
067
031
094
02C
0C6
018
FF0
FCA
000
FD3
F8B
FF7
F73
01C
FE9
FFB
010
001
EB5
019
FF3
FFA
FEC
039
FBA
FC7
FE8
F83
FD1
01E
04E
EF3
061
FB6
013
01B
0B1
07B
FBF
FAF
014
F9E
F5B
FA0
F8B
FFD
FD2
012
F92
069
EFF
FBD
01F
039
03F
FE0
01E
FDB
F1B
FE1
03F
063
00D
F61
075
F88
FFB
015
0AF
08C
01D
FDD
053
FE9
FD4
F7B
FA4
FCC
01C
FDE
F43
0B9
FE6
FEA
048
018
07A
024
03C
100
010
004
023
06B
022
083
FAA
00E
FE1
FF5
01F
083
FCB
FDD
01F
034
FB1
F36
FE6
023
FD8
F53
FB0
03E
FA6
041
F83
06D
0E9
065
062
08B
0DA
01F
00E
FC4
FC0
095
02C
037
05F
FE6
00E
FEB
046
02C
02F
04B
FF1
FF6
0AB
05B
04C
FB3
F71
FF9
FD8
FF9
001
F7C
04A
FFF
040
022
120
042
FE6
FAB
FF4
F4E
02C
049
088
FE3
FB8
051
0D0
013
019
FD0
FB9
02E
FD6
007
0B9
031
F34
098
043
FA2
FE4
F2F
001
FCA
FC4
003
06C
FCC
059
FCC
F81
F75
03A
09B
FF0
055
033
0AB
085
FFB
FE3
F7E
FB8
FFD
FF0
FEF
0B2
047
F86
07D
029
FA5
F86
09D
024
FFF
FB2
F68
028
F98
046
F52
FE5
040
041
109
F4A
082
FA8
B5F
D60
FBC
F6B
D9B
F26
EBC
F04
FB0
016
F85
0C3
054
E59
FE1
0FC
032
0AC
124
01E
0D6
014
103
014
F8A
020
FBA
C76
017
047
17C
EE4
142
F1A
080
FFF
09C
20E
125
356
270
FD5
173
018
091
066
F15
109
261
04C
EE4
144
083
FE6
112
BA3
042
EF3
F2E
F5F
069
025
02A
111
FCC
F39
FE7
FCF
FDC
E3D
047
0BB
05E
FD6
066
FE1
FEC
05C
FF3
F9F
FB3
028
FA9
0DF
FA9
FC8
F95
F65
0B1
031
FD1
F79
022
013
04C
0A0
05C
FBF
023
022
F47
F99
FFE
092
FA2
FBB
023
FBD
F83
F8E
015
F55
F6F
096
041
02C
FA0
FF1
FEB
FD1
01F
FC0
00E
074
FBA
02A
FE1
FED
028
FC0
F9E
FF1
FC0
FF8
FFA
046
00A
FF1
022
FA4
FC7
F2E
029
F72
FC0
057
015
FB8
F82
FC2
FAE
010
029
FAF
F76
0D8
FCE
086
00F
0B7
F5F
FFE
029
FFA
FD6
FB2
03C
F77
014
FB3
0A8
F7D
03C
09E
03D
FD8
072
07B
FC4
FFE
0E7
F8D
052
FD7
068
02E
069
F24
063
FE4
FF6
060
FDC
F2A
073
FEA
01B
027
091
087
FCD
005
FF3
FCE
010
02F
090
FFD
0B9
06B
04D
FE1
F84
038
FDA
014
04E
FC6
027
FB1
FE9
03F
02A
0AC
019
018
0A4
FE2
076
0AB
FF2
066
FB8
00A
02B
FA6
031
000
054
014
F35
002
FF5
FFD
F86
005
FA1
F95
05C
087
F6C
FD3
FB3
0BD
FF8
067
01E
15A
024
FE9
FE3
0B8
01D
F2D
FF3
0DC
01E
FDF
FAE
FA4
FDB
009
E0C
FA6
F79
FC3
065
04B
FEE
FF1
051
073
072
FC9
FFA
08B
F5E
01A
04E
01C
FE1
FEF
F38
07B
FD1
F27
EDA
0C8
007
F45
FC2
F36
FBF
FF1
129
097
FD6
F77
FC0
03B
F4C
002
049
F84
003
039
026
08E
EFE
F72
CD0
EC8
FC7
FD4
F07
0EF
F44
F9D
ECA
0BA
FF9
016
FC6
FBF
FDD
09F
150
102
F99
EC4
07C
E5B
E93
076
F23
F25
F69
CB3
05E
0ED
1B8
03B
FEE
019
FEB
F3F
0FF
0D5
03D
102
2F5
FA6
0EB
039
F5F
0E1
142
100
20F
02E
ED1
14C
F99
E9D
F3E
EA1
015
06F
05D
02B
030
044
E57
04D
E01
FFC
02F
FDD
00D
FF6
049
FCC
FCF
FC0
051
FE9
FAA
F79
033
FC2
096
041
FA2
0D4
FFA
F8B
03D
FF3
FAB
FA0
F60
FEA
017
F9C
F15
F87
E62
FDA
02F
FEA
003
FE6
FFB
F73
F7A
045
0BD
FFD
F87
F94
05D
FC0
FF6
074
043
FEF
F8B
F8D
FBB
02B
009
002
FEF
004
015
08F
00D
FAD
EA3
019
011
FE8
FF9
045
01F
F94
FD4
060
039
043
FC3
004
025
011
01F
04A
FBF
FD2
FE5
FD9
FAC
052
011
045
008
FC9
06D
028
0DC
058
F4A
027
066
045
034
072
03E
FFD
FF1
079
F2A
053
0A7
165
044
0CD
FFF
091
05B
F8C
069
FDC
0E7
028
F01
024
005
FCD
FB9
06D
08C
FB0
051
F65
053
02E
F26
FD8
079
0A8
FFA
044
F8D
0A2
F96
035
0AA
FFF
034
FFF
070
068
065
FA5
FFB
093
014
066
FFA
006
FB5
05B
009
08A
FEC
F7C
070
FF0
047
F9F
013
F7B
014
FA9
FF8
05C
FAA
023
08E
FED
F61
FED
FC9
061
025
03F
FF8
FEB
031
0C3
F96
00A
F53
04A
F29
FE6
008
06D
028
FBB
FAA
01C
01B
FE2
F63
067
003
082
FC6
0BF
070
FCE
F28
018
FCE
03F
00E
06E
FC1
F78
056
0E5
FE4
06D
DDF
015
F62
059
F94
046
EB0
0BA
00C
069
005
002
F42
04A
FA3
0A9
069
F7F
018
F6F
0C1
F6B
039
09F
FC0
FE8
EEC
060
0D1
FB0
FEB
029
EDB
010
E93
EF2
FAE
F0F
FF9
F69
EE5
1DB
02D
16C
002
0E7
008
FDA
111
DB4
FDD
16E
05C
122
FA6
F9D
070
CFB
E15
005
E45
EB2
FB8
E65
159
FCC
24D
DE6
17F
EC5
149
028
098
0B9
FF5
202
1CC
FA2
12C
03F
0BF
F7F
F0F
256
00A
0E9
EC0
05F
FE2
ECD
12A
D53
017
F34
051
077
06A
FED
FD2
F97
02C
057
016
06F
078
FEA
085
F12
01D
0D0
E5D
075
FD7
021
024
01A
FE6
FE3
02D
025
F58
FCD
FC3
F30
06B
F42
F7A
029
FE1
06E
F31
06F
057
09B
FE9
FF5
FA1
03E
029
F8A
02D
05F
E5C
057
027
FA6
03C
09E
029
FD7
FF9
00B
F90
FE4
FF4
07E
01A
FB3
FDB
FEF
FC4
087
E96
09E
05E
FEA
FAE
0E9
009
039
FFD
FD0
02D
0B8
EA4
FBB
09D
031
00D
07F
02D
FC7
FE6
04A
041
016
FF3
07C
FC0
FEA
008
FDC
FDE
FCB
F99
FD1
0A0
FE6
F6C
0D0
FD1
011
01E
09C
019
0E4
FEF
050
0C9
06D
0A2
05E
FC9
04F
0C1
0AB
026
FDC
0D6
056
FFD
083
01D
FD7
FB8
045
055
000
022
F8A
FAB
02B
F35
FDA
045
04E
01B
036
04D
069
FAC
031
092
067
FD5
028
FB0
0FD
0AF
F88
FF2
0A8
002
05C
FC9
003
047
00E
FAE
025
018
FE6
031
001
FC8
F5F
086
01D
074
01D
FBE
042
02A
01B
07C
06B
FBE
064
00D
02E
05B
FCF
039
094
F9E
0D6
FD7
01D
0BE
F81
044
09D
FED
084
05B
000
F67
F85
FE8
04D
01D
F8F
FED
082
FF3
F89
FEE
03D
02B
FE0
089
096
012
00D
FB2
032
0A2
FE3
00B
0A9
04E
027
054
0B5
FE7
FA7
0AA
030
002
FE6
FC5
04E
036
00E
035
013
0C3
F60
FE5
0AF
03E
FCF
087
FD2
04F
FC2
FE7
F94
139
037
FD3
FEE
F63
F1D
11B
FBC
F5F
EA6
F6A
D55
054
FD3
041
00F
10A
FDA
EDC
0A4
1B1
ECB
FB7
107
FA4
060
152
1A2
F27
EB7
0CF
F91
F22
FC8
122
0F2
0D2
F33
1A2
D38
176
F9D
1F8
1A6
013
147
F6D
F03
F71
121
EA1
E51
E72
F1E
082
199
FE7
310
F0C
E52
061
D88
04B
EAB
FC8
F51
FEB
F99
033
054
057
009
04A
02B
092
E8C
096
FA1
05D
E93
127
06E
F77
084
0C5
09A
FD5
011
09E
FAF
048
FA1
035
F41
0B3
FD9
029
009
033
F97
04C
FA1
032
020
0D1
03B
FCF
E25
011
FE3
00E
FD5
0EF
0DD
FE5
022
03B
F7B
FDD
059
044
FAF
054
FCD
007
05B
FE9
03C
03D
014
089
000
034
03F
00D
04A
00B
04C
F8A
E6F
098
FDD
048
097
11B
054
057
FAC
0A6
FBE
FC6
FE8
010
FAD
0B4
FE9
09A
025
FDE
023
0B8
FDF
061
F5E
F74
045
EDE
069
02F
F9D
FDF
F54
FD7
06A
FC6
059
0C6
046
0CD
031
05B
071
036
FE6
FEC
FA6
03D
051
019
FD8
008
004
080
05E
025
028
028
045
FDD
05D
FF0
01B
04E
FBD
004
FEF
0BA
FCA
0A5
05D
070
07E
FE7
FC5
013
07D
016
043
007
063
083
F90
FB5
062
F25
06B
041
FCF
0C0
050
06C
00D
FF7
047
008
FD3
048
02F
079
FC8
01A
01E
014
093
FEF
FC2
FF3
088
019
02F
054
00A
090
040
008
02B
057
002
054
00E
033
098
046
05A
FCD
00D
FE9
FF6
033
FF1
FAA
FC3
01C
F93
FF3
FCF
018
FC1
FF9
0C3
034
FE1
033
FEC
03E
F87
059
FF4
0CE
FBD
058
025
FA6
0A3
042
03E
FDF
081
F98
00B
FD2
F26
FE6
05C
05E
005
FCB
FF8
053
092
03B
082
063
FF0
07A
FDA
0A0
032
0CD
FAB
FE9
F72
04E
F4A
E59
02C
F85
F3C
12C
E9D
E2C
1AA
097
E0D
074
084
FB8
E94
17F
0A9
0BA
018
038
FAD
049
0CA
F92
108
E15
1C7
E91
FAA
090
E9D
03E
015
0F2
F24
0D8
F9D
FF9
01B
0E3
0F1
18E
1F6
009
F7F
ED2
008
FE4
F1B
023
F28
069
FB0
005
1D1
EB3
F63
FA1
E84
F9E
F19
F6A
024
01E
074
F4E
F3F
0C5
FE7
07C
042
01F
054
0D9
FCD
ED3
F1F
007
070
FB8
F86
0CF
F6A
FB8
FF1
F65
030
078
032
013
FD9
0A9
FFE
F75
0BA
08A
FDC
FBC
F98
044
F6C
00F
009
04A
02B
06B
F9E
F85
057
F21
013
080
F9E
050
FEA
F3B
FCC
045
049
037
FF6
072
05B
034
024
FA9
FBB
034
FB5
059
F91
055
F85
FE2
018
02D
019
02B
FAB
04F
006
F1C
F78
03E
028
04F
FAC
F92
FF3
FD2
FE5
029
05A
01C
056
FA1
FFC
F82
FA9
057
FEB
01E
FCD
040
01A
006
FBE
080
00F
05C
FA0
035
FE3
FB5
F8E
055
029
08B
FEC
F90
F6E
FEC
FF8
010
054
F76
08D
FDD
064
F7B
FD5
011
085
062
F79
FA0
FC1
005
FED
079
FE3
082
FE2
F9C
FFD
FAC
003
01A
025
04D
FD6
FAF
F54
024
00E
03C
0F8
FFE
050
03B
F99
077
00E
00A
060
FEC
FD8
FDD
F3F
FFD
047
FE8
FB3
080
04C
F3C
00F
02B
065
05E
019
FD2
F82
FFE
F9F
021
FE1
005
08D
FDC
003
070
F54
096
FF4
06B
071
023
FFB
050
013
063
018
FCA
FEB
0CB
00C
FD0
05C
074
039
009
FA8
04A
FDA
FD7
F8D
FAA
FF0
030
0A3
005
F68
0E3
F4E
019
FB2
070
07F
06B
FB2
FC3
F62
F4D
029
FB3
FEE
089
FEC
FE2
035
02F
046
F8A
FA6
FAC
F34
F5B
007
FBB
069
FD8
0D9
FF4
01C
0A3
F95
008
F9B
F9B
0C9
F31
FAC
FDE
E08
111
EC8
FB5
F7A
0CD
DD5
0DD
FFC
F74
011
06A
02F
0A8
17C
F20
F3A
0F3
14B
095
FCF
E48
0D4
027
FAB
FA4
E3C
0C7
0F7
2A9
062
0AB
E02
0A7
F1B
26F
147
FD0
166
F30
010
0BC
000
EAD
F82
E7D
F04
F3C
F7B
0FC
196
DF1
EE8
16A
D5C
0B5
F24
07E
F9B
084
05F
ECC
11E
FF4
01D
FDC
FD6
080
134
01A
FBE
F46
047
F28
018
05C
F29
054
04B
F5F
FDD
FB2
0A1
FA7
00A
04E
036
060
F73
039
F39
095
FCB
EEA
093
FE5
001
FBC
06A
038
053
FF7
FF0
F93
055
035
00A
FE9
FC1
044
FE3
037
FC8
04B
0FD
052
FEB
FD7
FD7
049
FB1
00E
FD6
03F
FAC
FDC
FFD
01B
FCF
F99
014
029
069
05F
FD8
F0A
007
FD3
024
FD3
FFA
08B
FCA
015
002
003
0D9
045
FD7
FFC
01B
02C
004
FA1
FEF
06F
FF6
00D
FEE
FCB
02F
FF8
FF8
01A
012
FF3
03E
EC2
FFC
FB9
01B
066
FA7
08A
FCA
025
FF0
02B
050
071
FF6
FC9
03E
049
FF3
062
FF6
021
075
085
FF6
041
089
FF2
029
01D
FFB
057
058
ECF
024
F91
02E
06C
FD0
082
056
004
F79
FE2
00B
06A
001
FD5
019
07F
FCA
0A7
027
011
01F
0AF
F8D
05B
FB8
F90
FDF
FB6
FA5
085
027
F18
FEF
F4C
FA9
05E
F8E
07B
0BE
F77
F84
048
058
004
065
FE3
FE4
044
FE9
023
027
F80
013
067
F4B
F99
FEA
F7D
FAC
FB1
FF6
067
055
EE7
015
FEC
042
06F
018
F9A
0B0
FEE
FB9
031
FCD
027
114
FB8
FF9
070
027
FC9
FE5
F14
F46
F44
E97
022
FF7
FDA
F6F
DE0
FCD
091
FED
EA1
00F
FCF
033
185
F79
FEC
119
FB3
E7F
E0C
070
F23
140
EBE
01D
FDC
F7D
07D
0D1
F78
096
F4D
D9F
013
E5F
00A
E45
F9B
EEA
06C
DA8
09C
F43
135
E52
0A1
F69
006
1A9
FC4
FCA
EB0
1E3
009
011
EEE
F9F
ED7
FEC
1A8
F7F
000
042
111
094
0CF
F97
FEB
EFF
1BB
1B1
E17
0DF
D4D
F59
28A
154
CB8
F8B
E6E
F59
0C4
FB9
055
0DC
FB5
EF1
21D
DD6
172
EF5
112
145
E9A
E99
031
F42
ED7
FEB
F6B
103
021
13F
10A
0EF
D67
FA5
F91
125
E2A
EA7
E80
EF9
07E
ED0
0BF
F34
094
0F5
F0B
D0F
097
123
057
27E
EA9
052
167
FB4
F65
FB3
0A9
03D
03D
099
EBA
0B7
EF5
056
065
FB4
F8F
F6F
F92
F6F
FE2
ED1
177
047
FC5
05F
FD5
F12
120
F86
003
0A3
F56
044
10B
05A
00F
031
099
053
07E
F59
F32
FE0
ECF
F84
09C
011
F10
DFC
F02
FFB
03E
F8A
066
081
F62
FAD
1A5
0CA
17E
F32
0CD
033
FFB
009
0EB
042
F96
003
034
FB4
090
FA9
FD1
031
FF5
F4C
0A4
FEA
F2A
F0E
F7A
00D
FB4
FB8
F0C
FEA
F4C
04B
093
076
0D5
F8B
028
FFE
EE4
049
094
018
00A
FDA
029
0BD
F41
FB6
F60
F42
0C1
FE6
060
FEB
F85
F02
056
054
023
005
FC8
14D
F8C
022
0A3
010
057
F31
007
FA9
DA0
FCF
0D6
FA2
03E
F80
F45
F9C
EB4
035
EDC
027
FD1
FB2
FB0
FEF
FD7
FEB
FD9
F32
FD3
F42
FFD
14F
F81
09B
0DE
009
FEA
FAB
09E
000
E41
091
07B
F97
F57
00F
D65
12B
F6C
FA1
EDD
FC8
0C8
F90
0B4
F7E
FAC
EEE
06B
03A
F3E
DCA
165
140
F7B
012
0F3
07A
07D
E81
123
FDC
E0D
16F
135
0A7
F80
085
CA4
E44
F5A
EFC
E89
F2C
EA6
EFA
0D1
005
F80
F6A
05E
15E
F43
F74
F58
0A7
EAB
F2C
F01
DCF
F80
148
033
080
0F5
E81
E6D
D35
138
EEA
00F
10F
EBE
214
10F
F71
EE3
002
24E
F03
FD9
E7B
F34
132
17B
0E8
01F
07F
045
1CF
FBC
001
DFE
0D2
274
1F6
106

