1E9
026
029
00A
031
1F1
1EF
1F7
026
1C0
01C
022
041
1F1
1D1
016
01D
01B
1EA
1EE
1FD
00F
1ED
1E8
1F1
1FC
1F1
1F5
027
1CB
044
024
01D
1F2
1E5
1F7
1CC
1E7
1DC
1DC
02A
00F
1FD
037
02D
1DA
029
011
02B
001
1ED
1E3
1FC
1CF
1DD
1CD
001
015
1D2
1F2
035
021
03E
1F1
02F
1CB
1F1
016
1FF
01E
01E
026
1F6
002
018
003
030
1F1
1F3
039
02F
1E9
1F5
1F4
1F3
1DA
00B
1D1
035
1CF
1F2
014
1FE
022
013
02A
003
01A
02B
1E1
024
034
021
002
1FE
1ED
034
003
03B
1E4
01F
1D4
1E1
025
02E
1EA
1FB
1FE
029
1D9
1D7
1F7
1D8
1FF
1CF
026
1F3
1E8
02D
016
03B
016
034
1CD
1EE
00F
00D
005
1F0
00C
037
1D7
032
1EE
02A
1DB
1CD
1E9
1F0
1DD
002
1E1
018
02F
011
029
02E
01B
02C
1E2
035
021
1E2
015
1E3
1CD
020
016
00E
1EB
1F6
03D
002
00B
1FB
018
1DA
00D
02C
1F6
01D
1F7
02B
1EE
016
1D4
1D4
1DE
015
1D0
01D
01F
000
1F2
023
1F1
1FF
025
003
1F0
002
1E2
020
1E6
03A
1DC
1D7
017
025
01B
1EA
1D9
1CE
019
002
01C
1E4
1F6
013
01F
1D9
1E4
039
1F8
020
016
1FF
027
1DF
1E5
1EE
1DB
024
025
1E1
01F
020
000
016
1D8
031
010
029
1C1
1E6
1FA
016
1D8
1E5
045
1E6
027
1EE
011
1DB
1CF
015
1E8
1F5
1FB
1DE
018
02C
1B7
1FF
005
1D9
03D
02D
010
005
1ED
1DD
1E7
1C6
00F
1D5
01A
034
003
034
1DB
1EC
006
018
1F9
00A
1F7
1E6
1CF
005
02D
1F0
032
032
1ED
007
003
033
000
00F
1D9
1D1
031
1D3
1D7
007
026
01C
1FD
03F
1D2
1F6
1F4
000
00A
00F
1C3
04D
029
018
1DF
1EC
1D3
005
1DC
019
001
016
1CB
1DF
1F1
012
1F2
01B
1D4
1F8
021
1CB
01E
00C
028
00D
023
000
034
01D
1D5
1CB
033
038
1FB
028
1E1
028
1CE
02D
00F
012
01D
002
01E
034
020
1D9
022
1EF
1F1
01D
1E4
00E
01E
1FC
1FE
1F8
005
015
1EE
1DB
1E5
1ED
1EB
036
024
1ED
002
046
1E9
1CB
01D
1D2
1DB
03D
1E1
042
1FA
018
037
01B
1E2
1CD
018
1F0
032
017
013
1ED
1F2
01B
1EE
1F9
00C
1EF
02A
033
020
1E2
01E
047
1FC
1EB
018
1CE
1F5
03E
008
1FD
02C
036
1D1
1FD
021
1E1
1E1
1F3
00F
1EB
1E4
036
00B
034
02C
010
002
1F8
029
031
01C
1D4
1D1
043
009
1CE
00F
01F
1D5
012
1C4
021
01F
02B
02A
1D3
1F2
017
1E0
007
1D3
021
028
039
024
000
005
1D6
001
011
012
026
02E
1FE
029
00A
1E1
023
008
014
038
022
1F4
015
040
1DF
018
02D
018
011
04E
022
015
1F5
1FB
1BC
021
022
01B
00B
1D3
1D9
018
02F
012
030
1D7
020
025
1DD
1FA
1DE
027
1E2
1C3
013
043
1EE
011
012
1ED
032
044
01E
1F2
1F2
000
005
02D
1D8
1ED
013
1E1
01F
1E7
015
1F5
1CE
1D7
1ED
00D
1D5
1D2
1CA
1DD
1F4
1D1
1F2
022
1DF
025
1D5
003
015
1F4
02B
026
01D
018
006
1F1
01A
00E
030
003
1CF
02E
1F3
1D7
028
1F2
016
011
007
1CC
1EE
1BD
036
1FA
003
011
007
1EE
007
039
04D
053
028
1F4
013
1FF
1DD
1E5
011
030
02A
02B
1F2
1F6
029
1CA
014
01D
072
033
00A
00A
02D
01C
1F5
045
03F
1F4
014
03C
1DB
1C8
021
1FC
007
019
00F
1F8
03E
006
1F8
001
024
010
1E4
1DD
006
1CD
1F1
1E4
043
1FD
1EC
1F4
01F
1CC
030
1C4
1D2
028
1D9
1F3
1DD
03A
00E
1F9
020
1F1
1FE
1D0
1FF
1C9
027
020
032
1CC
1DB
00A
045
1CC
014
1EC
02E
00D
1E4
1EE
1DC
027
005
01B
1D7
02E
037
1DD
1EC
01B
043
014
00E
013
034
1FE
01D
020
030
00F
1E0
1D7
010
03B
047
1F2
1E1
1FC
01E
008
1EC
1F7
1E2
016
01E
1BF
016
1FA
035
02C
020
1DE
1EC
039
1DC
1EE
1E9
1C8
1E6
1ED
1E9
01A
1D5
1CD
1E6
1F6
04C
1ED
1E1
01C
000
1EB
1ED
1ED
1ED
020
1F5
1D3
1DA
032
1DF
1FD
030
012
028
007
01B
035
033
00C
1E2
02A
026
02A
025
029
033
1D1
010
1E9
1EB
019
1F8
012
1F0
1E9
02D
1EE
1EB
1FF
019
033
1F4
01F
032
00F
001
047
00F
00C
1EF
01E
00E
1D9
1E8
039
1D8
1CB
01C
1FC
042
1CE
03A
012
012
008
1FF
1D6
1C7
1D4
035
047
1DA
006
1F7
007
1EB
1CB
01C
03E
02B
1FE
02C
00C
1E0
009
01A
021
00F
018
01A
020
1FB
00C
1E6
1D8
019
005
1D0
008
005
00D
013
004
036
01A
1E2
1CC
011
034
1DF
028
1EC
1F8
1D0
01D
1E8
014
004
1C5
026
1FA
01F
1DF
040
001
012
1D4
024
1F2
1F7
018
01C
1E8
018
1CE
1E0
023
1FB
01A
1E1
033
01A
1F1
1D9
1D4
02B
021
1DB
014
012
1E0
1D7
1D7
1E4
1E0
02D
005
1D7
00F
1E0
010
035
00E
1F1
002
027
004
020
015
01E
008
028
011
03F
1F3
03C
1D5
1DB
00B
1DD
011
030
1DB
1D2
026
1ED
021
1FD
1D7
033
1EF
00B
00D
1F8
1D4
1D4
1F8
007
000
02C
1FC
1EC
005
1ED
1C7
1ED
025
008
1DC
1F2
020
02C
1F9
1D2
02D
1DE
1FB
017
003
056
007
033
1FA
012
030
1DA
1DE
1E1
1F1
03C
1DC
021
00C
1F7
1F6
1CE
1D9
038
1E6
000
038
1CD
1CF
02B
1F1
1DA
033
1F8
004
016
039
027
1CF
1E4
1DB
1CC
1F2
1F5
1C9
005
1EF
1D3
002
1F9
032
1F9
029
033
028
1FF
1DD
020
013
1DA
030
02D
013
009
1F5
017
00A
1D6
019
03A
007
016
027
008
007
1D4
00D
01F
1DE
018
1F0
1CE
1EE
1DB
1FB
1FE
016
03A
1E7
01E
015
032
1E4
1C9
00F
1E0
006
1CF
1F4
1E7
02A
1F6
1EB
002
00A
035
1F5
1CF
1D9
1CD
1F0
1DC
00A
005
033
002
1D9
1E7
1FF
01A
00E
1E6
031
1EB
1EC
02D
032
1ED
013
00E
1F9
1FD
009
045
027
1BD
014
017
1E3
006
025
1C9
1F5
1DF
00B
01F
03B
038
01B
1D7
022
029
037
00B
002
1E9
017
001
025
006
015
02E
01D
1F4
1F6
1F6
1F4
027
00D
19E
1F1
017
013
1F9
1D1
1D0
092
190
07F
1B6
028
1FF
1E1
02E
064
002
1B9
1E3
020
1AE
1CC
1C9
028
002
02F
012
017
1D0
1BF
1F0
1C5
018
1FC
1CC
1F4
004
1C5
014
191
00A
1AB
002
001
009
04F
1E4
001
1F8
01B
000
1DF
03B
1EE
049
1A2
019
016
1ED
020
039
05D
1F0
1FA
031
1D6
027
00A
1D9
1F2
002
1F1
026
1DB
022
1EF
018
004
1DA
01D
1C8
002
010
1F8
1E9
006
1F2
1BC
018
012
00E
01D
00C
038
024
1CC
1CA
1CD
1CB
015
003
037
03C
015
022
1D8
011
012
01D
1ED
025
035
031
004
019
006
004
1CE
018
010
1F7
1D7
1D2
031
1E1
1D9
1E7
008
1FE
017
1E1
1DE
033
1E7
03B
00A
020
1D7
00A
1E6
1F4
1CE
1CC
1E9
03C
1EC
027
1CD
02C
00F
010
001
01B
008
00C
1DD
1EA
029
1E8
032
009
1EB
01B
019
1E3
024
004
005
1D8
01F
034
02C
018
1E9
034
1EF
1FA
1ED
1E0
01E
014
008
1F3
000
1D1
02A
1D1
1E1
001
1D7
00A
1EB
03B
1D4
1D7
1D6
030
02B
014
1BF
1F7
02A
035
01D
1FA
033
00B
045
1F7
1FA
1C7
1ED
014
1F0
1CF
015
018
1E5
1EF
028
1E9
1EF
1D9
014
001
1C9
025
1DE
1FA
1D0
1FA
1C9
1CD
1F6
014
1FB
030
01E
003
03B
019
02B
014
1DA
1F1
035
001
03A
1DF
007
1EC
1E5
01B
1D1
1ED
1EF
002
1D3
1D7
024
001
1ED
010
1F5
1FB
1D9
01C
010
1D0
027
1EF
1D8
1EE
037
015
1DA
013
1F9
02C
004
000
1E5
032
014
01F
1F7
009
1F8
1E3
034
1FA
001
1EC
024
1CC
034
016
00B
1FA
1F6
1EC
042
02B
01A
1B0
1D7
005
1E4
027
1CB
01F
1F1
028
023
00E
1EA
036
02D
1A6
1F7
185
1D0
1DA
02F
1DD
1B0
1AE
0DF
1BC
023
014
1F5
017
03B
07D
048
1EA
1D0
1F6
1E4
1D4
1FE
00B
032
1E9
1E6
01F
041
1E7
013
1FC
1DA
1E1
009
00A
031
02E
1D9
1F5
1AE
026
1B6
03D
173
1F7
08A
004
199
1C8
061
005
1FE
01B
1DC
093
17B
01B
1E2
1E2
038
041
0AB
1E7
014
15B
1DA
1DA
023
002
003
1C1
1C3
070
18B
064
15D
1C9
03F
1CD
1C8
162
048
1EB
1E5
038
1CF
065
15C
002
014
003
1B3
00A
066
1BD
1FB
170
1E2
00A
001
002
1B5
1A8
002
006
1BE
02B
1C9
1D8
04A
1C1
1DC
1D0
05B
011
021
063
1F3
072
199
1D6
027
01F
00A
03C
08E
1E9
1E3
1FA
002
1D2
011
1E3
1B2
1E5
02B
1EC
004
1EB
1EF
1FE
045
019
031
1DF
1B1
1C8
1DE
1C9
001
055
1FD
1E1
1EB
02A
01F
1EF
053
010
1F5
03B
000
1F3
1E6
032
1EF
1FC
1C5
01B
02D
031
037
00E
006
01B
017
1DA
002
1D2
016
040
1EA
00C
024
1E7
1F8
1D8
1E5
03F
014
1E3
1CB
032
00F
011
1EB
1F3
1F4
030
1D1
02A
03A
1EE
00A
1D3
019
025
1F8
003
022
02F
1FA
1EB
017
01C
031
1EF
1EB
1E0
1ED
00C
1EA
003
1F1
1F0
1F6
032
01C
1F4
020
050
1EE
1F7
00E
1F8
1E1
1FB
1FD
008
1E5
007
1DD
1F5
007
023
1FE
1C6
028
1FA
1FA
1CE
1F3
01D
01D
01F
1D1
01C
1FE
1ED
00C
00D
043
023
012
02C
00E
1FA
038
008
006
004
026
028
1FF
1F7
1F3
006
1F8
1C7
035
1FE
009
1FA
1DD
03A
014
01A
001
1BF
1D2
02F
1DF
003
04C
001
017
029
004
02E
1EE
010
01C
1C3
017
011
053
017
1D6
010
1D9
1EE
1ED
01E
1F5
024
1D2
051
02C
02E
1E5
19B
1DB
1EA
1ED
01D
1DB
1DC
08B
1B3
018
1B0
1FA
1F3
1E5
03D
020
1FD
1FA
034
008
014
1E4
1C6
00B
1D3
1CD
1E8
1F9
031
011
004
1F5
00C
01E
1D4
1E8
1C8
012
1CC
01C
1F7
001
1CA
007
012
028
022
055
02D
1B8
1EE
002
1F0
033
1DC
1E7
031
01F
1E2
03B
004
01E
1FE
006
1C0
030
018
1D7
1CC
041
013
04F
03F
1DA
014
022
006
008
1B4
1C4
1E5
1F6
000
00D
1EB
1DA
02D
018
1FD
00F
01D
01F
005
034
1DD
010
1DB
1F4
000
029
02E
1D1
1C4
1DB
1ED
04D
02D
1F4
1D0
019
006
006
025
1AA
1F1
02B
1D2
004
03C
003
1F7
01F
028
059
1C7
1DE
1C0
024
03E
01B
1E7
009
02E
1B9
009
02F
167
0B0
163
063
1FD
1EF
0AB
0D7
066
141
1DA
00D
161
032
1CF
0BA
012
1D6
1D7
083
18F
1A2
031
1DB
02F
1EB
1EA
1CF
1F7
1F2
02E
1D6
1E8
01B
033
003
000
006
1D9
1CF
1E3
1EB
1CE
015
035
1CA
009
1EF
008
1E8
005
1EE
01C
1FC
01F
1FA
047
1EB
1F2
1EA
1FA
02B
021
1EF
1E9
1ED
1E4
1E9
1FB
01D
1BF
1D4
1D8
034
1FD
01C
1EA
1EA
00A
1E9
1D2
1F9
002
007
1F8
1E0
002
1F5
06D
007
00A
1D9
1CD
046
036
017
017
02C
1F4
038
1D4
1BA
00A
1DF
1FB
01B
1D3
1D2
031
1E9
1CE
004
1CC
1D4
1E6
1E7
024
1E9
057
1E7
005
01A
00F
1F9
1C9
05C
05E
04F
051
1D4
1C0
044
1EA
1D0
1D8
1CA
1F9
018
1EC
1F6
032
02D
1DD
017
1D4
1E8
1DD
1B0
037
1DB
054
019
1DF
017
023
034
008
070
05E
081
05C
1CE
001
048
00D
1B5
1BD
19C
046
08C
01F
00D
008
1D2
1B5
056
1E3
030
02A
1BA
056
1C4
06D
1F2
001
1DC
012
032
1CA
091
084
0B3
094
1BD
02D
030
010
1C3
18C
1AF
1ED
082
1D9
1C8
04D
033
1CF
1F2
010
1E4
01A
18E
074
1EB
03F
023
00D
024
021
02D
01E
02F
01E
076
1F6
1EA
1CE
031
1CA
1BC
1AF
1CA
01D
06B
019
1DA
04D
016
019
03E
1F2
008
014
003
002
023
00D
02B
1A0
02E
1D6
1D3
014
1EE
1F2
1D5
02E
1BC
04F
1F8
1E5
01C
013
00B
1D3
052
005
00C
03F
1E3
031
1F2
00D
1FE
1F9
023
009
031
188
030
1DA
031
1E4
014
1C8
1B9
1AE
16C
1BD
1F4
04A
1C8
00D
072
07D
042
1B7
1DE
1FC
1D0
1A6
033
053
1AF
021
034
00E
07F
1F1
07F
1D5
01A
06B
007
016
013
1FB
15B
1E5
1D5
14A
078
1A2
04E
1F1
001
0A2
062
032
172
00C
1D3
1B5
00B
005
035
001
1FA
01A
04A
194
1E2
1F8
019
1EA
1E9
1F8
1CB
1CA
1CA
1EF
1B5
03A
02A
03A
006
1D7
1ED
1CF
002
1F1
033
010
01A
027
1CF
014
025
00F
031
1D6
034
044
028
1EA
02D
025
1FC
1E3
007
1E8
027
00C
1DB
036
011
1DF
1FC
02C
1D1
1FF
00C
1FF
1FE
1FB
00A
1E4
1FC
1D0
1E3
029
032
1D4
1CF
1F7
1F6
03A
007
023
1F7
1DA
02F
1F0
028
1E7
01D
1FF
018
1CE
03A
01A
1DA
01F
037
004
035
005
1CD
00C
019
1C5
009
1F1
1CD
003
020
007
1D0
072
1DF
042
1DC
017
1D0
1CE
034
049
017
1FB
1EA
016
000
1D2
1EC
198
000
1FD
03A
1E0
01B
017
001
1E8
040
1D9
01F
1F1
192
01D
1BC
083
1F1
012
026
027
1D8
1DB
0A8
097
03E
02B
008
1F8
060
1F5
1D0
1A0
1CB
074
036
1DA
1CB
00D
1EE
1A7
04C
1D6
1EE
011
1A8
073
1D0
030
008
160
1F8
1CA
1E8
1DD
09C
031
0C1
010
1FC
1CF
065
1CD
199
1D4
1D5
058
00D
1E5
1F5
009
02C
197
01F
1DE
1D5
1EC
1D2
021
1A4
1EA
1D7
13D
1E5
024
023
1FE
1AA
18D
038
1DB
005
01B
1F3
019
06D
063
00E
1ED
19F
00B
1E7
1BC
010
037
016
030
024
1D9
039
01B
1ED
1D0
1D5
183
1E1
00A
005
1D1
1B9
1A5
1D5
16F
033
032
1C9
02F
094
090
05F
017
196
006
001
1AD
1EF
03A
1AF
1CC
1CA
1DB
043
00D
048
1C4
004
1F4
1F2
1E9
032
1CF
1D1
1FB
1C3
1BB
01F
01E
1F7
1E0
053
040
05B
1D9
1C5
1E3
002
1EE
1F9
056
1DE
1CA
1CF
1CF
055
1ED
076
1B3
1EC
058
1D7
010
1DB
1D9
195
023
182
196
014
022
1EF
1CC
1F8
033
04B
012
1B6
027
022
1B2
1E7
009
1D2
1F6
020
00B
063
1EF
1F4
1D0
020
003
1E8
035
1CE
002
020
01E
1C7
1E8
033
041
030
1EA
017
022
02F
1FB
1EB
1F8
1DD
02D
006
03F
1ED
033
005
1C9
023
021
1F3
01B
1F7
034
1D0
019
00A
01F
1FC
1E9
1EE
1DD
1E4
1EC
1D4
1D3
022
012
1FF
1DA
1E7
014
1EA
015
1F4
049
01B
1C9
033
1CC
1E3
02C
014
011
017
008
008
1DF
1EE
1FB
019
020
1F3
033
030
012
017
1DF
1FE
037
028
00D
03F
021
1E4
1D7
00C
02D
1DE
005
00F
1D2
01F
1E4
02F
018
031
001
021
1F3
1E4
014
020
017
01C
1C3
03E
02D
1EF
028
1F8
045
1F2
037
002
1DC
028
1EA
1E3
029
009
1CB
009
019
01E
1F3
1C1
1EA
00F
1A2
035
1D5
02E
00E
00C
04E
011
006
003
1C4
011
007
006
021
02C
032
1EA
1D2
1DD
1D5
019
1E5
029
01F
1FD
1EF
1F9
043
1C3
1BB
1DE
13B
01B
1CB
01D
1F1
02F
1F0
083
1E5
020
019
1BA
1F6
002
034
021
001
1C4
1D5
1C6
1F0
000
042
1E1
1D2
1F5
1D7
043
1E7
023
1B5
01A
152
1CF
1DB
1DA
02A
1B7
1E7
023
1D7
028
1D8
1F1
1DD
06C
021
071
1FA
1A0
007
1EE
1D6
033
04B
00E
1D8
1EA
01C
036
024
000
1BE
1F7
1BC
02D
1D8
01A
010
1F0
1D1
00C
1C5
04B
1C1
014
1D9
03A
061
05D
1F7
173
034
1DA
1BF
1EB
01C
010
1DD
1F7
1FC
06C
1F6
00D
1CD
02D
004
1D4
1E5
1EE
01A
1B5
01E
014
03D
004
058
1EF
1DE
059
1E4
1EC
1D0
05D
022
1DE
00F
1F4
086
19D
002
02C
1FB
00A
055
067
00F
1F0
033
000
006
015
1CD
1F4
1D9
18F
012
040
004
013
02F
05D
1DC
016
1E2
1C9
017
1DC
1D4
1E3
04D
013
02E
019
1D9
00B
1F8
04E
1F8
00C
012
1EB
032
02B
01E
1FF
00E
1DB
00F
00C
034
02B
01D
041
015
1DF
1F0
1FA
1E9
1FC
016
1F5
005
026
008
1D0
1F1
02F
00B
1FD
1D9
1F7
1E0
1EF
01E
1FF
022
1E6
017
1B4
1E7
037
03C
1F2
02A
027
009
021
1FB
01D
006
1FD
1EF
1DC
1EE
025
1E0
1DE
1E3
02E
008
020
1CA
1F6
01C
00D
1E0
1D1
1D6
018
01F
1F0
03A
1EE
023
002
035
012
1E4
007
002
018
1D0
006
030
011
1F1
1C4
034
1CF
000
1FF
04F
1F7
00E
027
1E3
013
1FB
017
02F
1ED
00B
009
000
019
036
1F5
1E8
033
1E2
02F
015
1EC
1C9
01D
007
1F9
1FB
1F9
1D9
001
000
1F2
018
1FB
01D
027
1D6
1FC
01B
024
021
002
02A
1F1
1D9
032
00C
012
00D
1EA
1F2
026
012
006
027
027
000
1DE
1E2
1DF
01C
015
025
1F8
009
022
026
01E
1DA
1DD
1F7
1F7
1EF
02F
01E
1F7
00E
00F
00A
1EE
1EB
040
032
030
023
1F9
005
007
02B
1E4
1DF
019
1E8
023
00B
02A
021
029
031
1E4
1B2
02B
1E4
008
01A
1DC
1DA
025
1B2
02E
006
1E3
1EC
03E
032
030
1F6
1BF
025
02F
00A
00F
1FC
1F6
1DE
01F
1DC
1FC
012
1DE
018
032
1EA
1E1
1F5
012
015
1E5
021
019
1CF
054
1E3
1E4
1E5
1EA
005
020
049
1EA
1D6
1E9
1CF
1E2
1C2
1E8
003
1E0
1F3
015
009
018
038
1CC
1EE
1FD
014
007
02B
023
03A
05E
012
00A
037
026
1DB
02D
1C8
1BA
004
030
01A
1F3
01E
1DB
023
1F2
021
1FD
1CD
1C7
004
043
1DE
1CB
1B6
1E7
016
00E
1EC
1D9
1DD
1BE
1DD
023
02F
1F5
1E6
02B
010
067
028
1D2
033
1D3
00F
1FE
007
1DF
1CD
02D
019
03A
1D7
02B

